FF
00
01
FE
00
02
FF
00
01
FF
FE
FF
00
00
00
01
02
01
FF
00
01
FF
00
01
FF
00
01
FF
FF
FF
00
00
00
01
01
01
00
01
00
01
FC
01
00
01
00
FF
FF
FF
FF
08
FF
FF
FF
FF
00
01
FF
FF
00
01
01
FF
00
01
FF
00
00
00
00
00
01
FF
FE
00
02
FE
00
02
FE
00
02
02
02
02
00
00
00
FE
FE
FE
00
FF
01
FF
00
01
00
FF
01
01
00
FF
00
00
00
FF
00
01
FF
00
01
00
00
00
01
00
FF
01
00
FF
00
00
00
FF
00
01
01
FE
01
00
00
00
FF
02
FF
FF
02
FF
00
00
00
01
FE
01
