FF
00
01
FE
00
02
FF
00
01
FF
FE
FF
00
00
00
01
02
01
FF
00
01
FF
00
01
FF
00
01
FF
FF
FF
00
00
00
01
01
01
00
01
00
01
FC
01
00
01
00
FF
FF
FF
FF
08
FF
FF
FF
FF
00
01
FF
FF
00
01
01
FF
00
01
FF
00
00
00
00
00
01
FF
FE
00
02
FE
00
02
FE
00
02
02
02
02
00
00
00
FE
FE
FE
00
FF
01
FF
00
01
00
FF
01
01
00
FF
00
00
00
FF
00
01
FF
00
01
00
00
00
01
00
FF
01
00
FF
00
00
00
FF
00
01
01
FE
01
00
00
00
FF
02
FF
FF
02
FF
00
00
00
01
FE
01
01
00
00
00
FF
00
00
00
00
00
01
00
00
00
FF
00
00
00
FF
00
01
00
00
00
01
00
FF
01
00
FF
00
00
00
01
00
FF
01
FE
01
FE
04
FE
01
FE
01
FF
02
FF
02
FC
02
FF
02
FF
00
FF
00
FF
04
FF
00
FF
00
00
01
00
01
FC
01
00
01
00
02
FF
FF
FF
02
FF
FF
FF
02
FE
01
01
01
FE
01
01
01
FE
01
01
FE
01
FE
01
FE
01
01
FF
FF
02
FF
02
FF
02
FF
FF
01
FF
00
FF
01
00
00
00
00
00
FF
01
00
01
FF
00
00
00
00
00
00
FF
01
00
01
FF
00
00
00
00
00
01
FF
00
FF
01
00
02
FE
FE
00
02
02
FE
00
02
00
FE
00
00
00
FE
00
02
FE
02
00
00
00
00
02
FE
00
00
FE
02
00
00
00
00
02
FE
01
01
01
FF
FF
FF
00
00
00
00
00
00
01
01
01
FF
FF
FF
01
FF
00
01
FF
00
01
FF
00
00
01
FF
00
01
FF
00
01
FF
01
FF
00
00
00
00
00
01
FF
FF
01
00
00
00
00
00
FF
01
00
00
01
00
00
FF
00
00
00
00
00
00
01
00
FF
00
00
00
02
FF
FF
00
00
00
FE
01
01
FE
01
01
00
00
00
02
FF
FF
01
02
FD
00
00
00
FF
FE
03
FF
FE
03
00
00
00
01
02
FD
01
FF
00
01
FF
00
01
FF
00
00
01
FF
00
01
FF
00
01
FF
01
FE
01
01
FE
01
01
FE
01
FF
02
FF
FF
02
FF
FF
02
FF
01
01
01
FE
FE
FE
01
01
01
FF
FF
FF
02
02
02
FF
FF
FF
03
FF
FE
00
00
00
FD
01
02
FD
01
02
00
00
00
03
FF
FE
01
03
FC
00
00
00
FF
FD
04
FF
FD
04
00
00
00
01
03
FC
00
01
00
01
FC
01
00
01
00
FF
02
FF
FF
02
FF
00
FE
02
01
FE
01
00
00
00
FF
02
FF
FF
01
00
FF
01
00
00
00
00
FF
00
01
FE
00
02
FF
00
01
FF
FE
FF
00
00
00
01
02
01
